/**
  ******************************************************************************
  * @file    dnn_model_data_params.c
  * @author  AST Embedded Analytics Research Platform
  * @date    2026-02-08T21:58:03+0530
  * @brief   AI Tool Automatic Code Generator for Embedded NN computing
  ******************************************************************************
  * Copyright (c) 2026 STMicroelectronics.
  * All rights reserved.
  *
  * This software is licensed under terms that can be found in the LICENSE file
  * in the root directory of this software component.
  * If no LICENSE file comes with this software, it is provided AS-IS.
  ******************************************************************************
  */

#include "dnn_model_data_params.h"


/**  Activations Section  ****************************************************/
ai_handle g_dnn_model_activations_table[1 + 2] = {
  AI_HANDLE_PTR(AI_MAGIC_MARKER),
  AI_HANDLE_PTR(NULL),
  AI_HANDLE_PTR(AI_MAGIC_MARKER),
};




/**  Weights Section  ********************************************************/
AI_ALIGNED(32)
const ai_u64 s_dnn_model_weights_array_u64[2369] = {
  0xbb4355acbd9bfc63U, 0x3e6c995fbe5dcfd4U, 0x3e07172ebc803f23U, 0x3e914bedbda5cb60U,
  0xbdf92346bd7cdb74U, 0x3cf8d802bdc180d6U, 0xbc8f6ae7be2013c5U, 0xbdf3f1e2bd8c4025U,
  0x3e7e2a703e2e8b67U, 0x3d1e134ebcdfbcb2U, 0xbde430233e3c8a86U, 0xbe7f1a913de37c28U,
  0x3d249cfe3df4c52fU, 0xbe7cbdb9be3b3768U, 0x3d52ae99bc41feb8U, 0x3a3505e63db53a81U,
  0xbe239315bd5841c6U, 0x3dec53b63d40a0b1U, 0xbcb58f14bdadee8dU, 0x3d4f2c35be40b54bU,
  0xbe842ac63dbed635U, 0xbe40b6c7bdb27627U, 0x3d8e49823d02731cU, 0xbe864d47bc970dcbU,
  0xbde04c473e23109aU, 0x3de88f10be314308U, 0xbd0b0c56bd489d26U, 0x3c948c7abe33f5f2U,
  0x3e566a2b3deee243U, 0x3e19ada0be233462U, 0x3dc966083c695076U, 0xbdbdf4e3be0ce354U,
  0x3dc36c48be4b2b69U, 0x3e76d2183d81c95dU, 0xbddaac143df771c5U, 0xbaf554d7bd93a8f1U,
  0x3d1f5848bd4f07caU, 0x3e7d36d3be0a7e3cU, 0x3d81d4f9bda11124U, 0x3e6cb77bbc888ff6U,
  0x3e163e513e091943U, 0xbe8983c53dd9ef1eU, 0xbe1a3b4dbde99ee7U, 0x3dae332a3e6e38a3U,
  0xbe90f7f53da545f3U, 0x3b9a45973dbd201fU, 0xbc1d62953e461327U, 0x3e181c173d47c9d2U,
  0x3e075c64be73908cU, 0x3d1a7d91bdd84ef7U, 0xbdb8e015be265b96U, 0x3e6e27d8bd65effdU,
  0x3dd06a0dbe3cda1aU, 0x3cdcf200be31e877U, 0x3e8306b9be5c49c1U, 0x3cd8971d3e5badb2U,
  0xbd33c65bbe3d0183U, 0xbde53a27bdf1a28aU, 0x3d984116bc62db98U, 0x3e30e8f33dca8621U,
  0x3db369073dcc3b6bU, 0xbe88504c3e25c2fbU, 0x3d2fffcebe210fa9U, 0xbb9cb5bebdf95a66U,
  0x3de5c01cbd7dd87dU, 0x3e58b05bbe196cbbU, 0x3a1534403c9d838aU, 0x3d1f2dfcbd7c70adU,
  0xbe90c405bd8a2a1dU, 0xba7db19e3d42c9d2U, 0x3dea8bfd3e4043d2U, 0x3e1f12b83c1e7616U,
  0x3e4ed513be85ac31U, 0x3d732648bd8a5da2U, 0xbdad2450bdf2b3afU, 0x3da8a769bd996018U,
  0xbe0ef964be3a65f4U, 0xbe6a0cf43d9fbdcdU, 0xbd922de73e3f5071U, 0x3e3c5a043b92c3cdU,
  0x3e8a07e2bb1e6db6U, 0xbcfa2f723d28a3a1U, 0x3da017db3cdb2e12U, 0xbe0b5463be781744U,
  0xbe507408bb8516eeU, 0x3e782aa4bc82036fU, 0xbcaf178e3e1ef83bU, 0xbd85885fbe3518b1U,
  0x3e06b2273de3baf0U, 0x3dfe4078bdcdd44fU, 0x3dec4ca8bdb23817U, 0xbd01c0743df56d3fU,
  0xbe85c4353dce1ac7U, 0xbd153f0fbcf4cce1U, 0x3e728ae43da5c486U, 0xbe1a39a9bd2629ccU,
  0x3e64b31ebdf504a9U, 0x3e3be8693c3fc34eU, 0xbd8b22afbe5620cdU, 0x3cb27773bd168ecbU,
  0x3d36ff93be61cd2bU, 0x3e35588fbe564a49U, 0x3d9b93293e121814U, 0x3d4f08a2bdc0e394U,
  0x3dd2a21e3e85e1a7U, 0xbe2f6f033d5202b2U, 0xbe4a8bf23d608fb6U, 0xbdf40229be295bc0U,
  0xbe4085263d284206U, 0xbe33526ebde49feaU, 0xbe11bae6be657f50U, 0x3c3b2f673d8d21abU,
  0xbbc7d4e7bdf9759dU, 0xbe8aef32bd39b2ffU, 0xbd02d462bdaa9b27U, 0x3d38d820bdcc4bebU,
  0xbc93bc74be1a47ddU, 0x3b5af40a3da69faaU, 0x3e4169debe033471U, 0xbe443e18bcdc6c81U,
  0x3d4ee4343d91b17fU, 0x3d987d0ebe46d0e9U, 0x3de2bb32be4df733U, 0xbda5e849bd0e1ec7U,
  0x3da6b0c4be563237U, 0x3d697f4c3dfcdeeeU, 0xbe0f7c283d6ee4d2U, 0x3e159a493dc34a39U,
  0xbe152ee53e076970U, 0x3c7e116b3e5f1031U, 0x3e08feb7bdbf56c3U, 0x3c9020b93e6ab851U,
  0x3ddfbb44be66f1e5U, 0x3d186b203e2fa013U, 0xbe91c1f9bdab54d1U, 0xbcb3fcf83e1fbad3U,
  0x3d512c2e3dc3b964U, 0x3d8533c93d99913eU, 0x3dc4caadbdef2ecfU, 0xbdfadefb3e94d92aU,
  0x3dce74e4bd19629aU, 0x3df062a03d4cc619U, 0xbe76900d3dedfe48U, 0x3db379353e330444U,
  0x3c455b923e0799b7U, 0xbe0d23c6be8ef0ebU, 0xbd3e6aca3e2c092aU, 0x3d8548b6be61798bU,
  0xbe3bfbfe3d44eae9U, 0x3c2492e7bd1384caU, 0x3e1e34763d4b3c3eU, 0x3db620023e2616adU,
  0x3e1166243d27b260U, 0xbdc62496be532247U, 0x3d8f04bbbd4c8df8U, 0x3daedd53be36def9U,
  0xbe110564be6e8760U, 0x3e16db95be06ca9fU, 0xbe4d3b5cbe554064U, 0x3dcefbf6be186391U,
  0xbdc23a4ebc0fb48bU, 0x3e163285be2d507dU, 0xbda61d2c3ce98f36U, 0xbe4d3a0c3d933945U,
  0x3db65970be2da755U, 0xbe8dbc4dbe3271d8U, 0x3e5b22d9bcd0c2d5U, 0xbe166c2db9a03ebeU,
  0x3d2b1e5abd711cecU, 0x3eb747c13cf19670U, 0x3daa7593be23c43eU, 0x3e20fbec3d72c059U,
  0xbe694eb83da7c36eU, 0x3d0560ffbe180448U, 0xbe5ca6b8bdadb0caU, 0xbdedc914bc711a04U,
  0xbdf39f3bbe55e701U, 0x3e11cbe53e3ee403U, 0x3a87af1cbdcb230dU, 0x3e0e50a93c522d22U,
  0x3dcbd6efbddb3d9dU, 0x3dc2c9c73e53d53cU, 0x3dde6ba3bdac2d9fU, 0xbe10f78ebe66ace7U,
  0x3e57d2f23c8fe520U, 0xbcc38a8ebdd50f50U, 0xbe0a37b23e4b29fbU, 0x3e10dd393dc29a94U,
  0x3d0de814be050f8dU, 0xbd8b1205be86ac7bU, 0xbe0e6f12bc0dc0a7U, 0x3d7a910abe104746U,
  0xbdb09845bc11c5f6U, 0xbe3ba736be4e909dU, 0x3d23c825be4ffdb7U, 0x3de4e98c3c8f1356U,
  0x3cb2cb31bd2d97c0U, 0x3e26dd99be0ced83U, 0xbd84c744be5e4f20U, 0xbda150043e2f70ffU,
  0xbe437589bcf97788U, 0x3e3598563da8c7dfU, 0xbe4e55ba3b6d915cU, 0x3ce30558be101229U,
  0x3e8cf01cbe0ab074U, 0x3d2dcdb8be0fc354U, 0x3c80f2e4be42c2c7U, 0x3dcbdc153d1ccc66U,
  0xbe5595ee3d0b754cU, 0x3df02a133d6e2ad3U, 0xbe498248be46119aU, 0x3db4398a3db9b213U,
  0xbe162532bd894aaeU, 0x3e21c984be31cfbcU, 0x3bfd571ebe3feaebU, 0x3c7e68113d722c89U,
  0xbc8dac963cd2844aU, 0xbe4c253fbddf7784U, 0x3df2cacbbb2b0608U, 0xbe10a68b3d873976U,
  0xbe3beed8bda1c67bU, 0xbd5034f63d8ff299U, 0xbdfd4d2a3c66befdU, 0xbdcce3a8be74721eU,
  0x3e26882e3e2dc02cU, 0x3d11d53cbe3763ccU, 0x3e77d4c8be33d672U, 0x3e0cb9073d51f396U,
  0x3dcc3e5cbdd0fbb6U, 0x3e0720e23e219c73U, 0x3ddb46bbbe64c988U, 0xbdcffeb3bcba5371U,
  0xbdddfc6dbe5fb8f0U, 0xbe09147cbdd27511U, 0x3e22490fbe2e5a5aU, 0x3e6be1bd3ca1f941U,
  0x3df8983bbe505f19U, 0x3e4a79b6be0b6640U, 0xbe0709b43e84f085U, 0xbe0433f23dc40d4eU,
  0x3dd49b6c3e836462U, 0x3e12b23a3e1defabU, 0x3e18231cbdb59786U, 0x3e63c614be28c9d2U,
  0xbde3e0433e97c69cU, 0x3d88795e3bcbe4ffU, 0x3e89c80bbde5d46fU, 0x3cb292f0be3f2f75U,
  0xbda3ca72bdd4bedfU, 0xbe16a8a2be1bd3adU, 0x3e28474abd966255U, 0x3e816b5d3e4e2adbU,
  0x3e03d211bbc3f28cU, 0x3e9e8389bd80b435U, 0x3dd12c33bad8c324U, 0x3e287dca3e3ab8ecU,
  0xbc9967ce3e0c59f8U, 0xbc398220be12c3c4U, 0x3e2914d03cf65a44U, 0x3dfdb283bc2ea5a3U,
  0xbe1a774e3e09f15cU, 0x3d8fc63c3df3e0b3U, 0xbe57aaf33c89f56eU, 0xbe7737dc3e187971U,
  0x3e04a8663e59ed3eU, 0x3e4bcdf63c9536beU, 0xbd89929dbdbbd1f8U, 0xbaf25ad83ddb31a9U,
  0x3c5c0a9f3df8d128U, 0xbe521a0e3dd563dbU, 0xbe4123ffbe0221feU, 0xbd52849d3e9bad2fU,
  0xbdb8c9e43e1a7dbdU, 0x3d98f51fbe57dd13U, 0x3df2bff93cf0ac8bU, 0xbd6cbf09be26ad10U,
  0xbd9ce9533e5a5d6eU, 0x3c94bfb3be2a2cadU, 0xbd09f9d13e1e326bU, 0x3e06eda8be45c001U,
  0xbd898443be396328U, 0xbdcbfcdcbda0fa78U, 0xbe18f39bbd0e0ec0U, 0xbe2ccb6bbe374bddU,
  0x3d2cc3e5bced6d9aU, 0x3dc04fc53e38105aU, 0x3df70cefbe38e613U, 0x3d82fe083e12f339U,
  0xbe150ccdbdd09087U, 0xbd923f7bbe143642U, 0x3de2048d3e4bcbb8U, 0x3cafa364be1c31b8U,
  0x3dcae4d5bdabbcc8U, 0x3e813a77be2b0ee8U, 0xbe9a7533bce508eaU, 0x3e77ccf33d4d70a3U,
  0x3d81298f3c9ea185U, 0xbdf74b18be76deeeU, 0x3e16adddbd0fabd6U, 0x3e78b4d33d5bc67bU,
  0xbbeea1ed3d1a7e72U, 0xbe0b88903d6bc253U, 0x3e3b4d213e614097U, 0xbdd6b091be062e5aU,
  0xbe825d0cbe116fb0U, 0xbe651cf3be16724aU, 0x3d189fecbd9d435eU, 0xbe3074f13e87a818U,
  0x3de600413e1725afU, 0xbca4a6b1be2df9e0U, 0xbdc3ea1bbd339555U, 0x3e2917e43e0e9c10U,
  0x3e651cc8bc7f4c66U, 0x3d75110fbe6aac25U, 0xbdaa4a703d9cbbd0U, 0xbe1508c4bd12d990U,
  0xbdd8ec56bdc478c1U, 0xbcd50c0cbdca4b60U, 0x3e91c84bbd3cba57U, 0xbe0cd87ebdf64e16U,
  0xbdf64e76bd9acdcaU, 0xbe3f85e43c8bc2a7U, 0xbd1492c0be45bd91U, 0xbe23f212bd87c023U,
  0xbdb936c5be58f110U, 0x3daca5dfbe154dbcU, 0xbdfdc76ebe767473U, 0x3d9aebf83d3c557dU,
  0x3df3038abe852aa4U, 0xbe76363abe1b034cU, 0x3c9efb4f3d47b820U, 0xbe25697b3e0abc52U,
  0xbd3acb3a3dda99fcU, 0xbe26ec30bdf05ec9U, 0xbd8acf82bd6194feU, 0xbda4989dbdb747daU,
  0x3db428dfbe6270efU, 0x3e44b500be246de1U, 0xbdafa762be591990U, 0x3cd9593ebd871773U,
  0x3d08c0e33e4efcb5U, 0x3db2984a3acc304cU, 0x3db764983d880e9bU, 0x3e2f2dde3ded5e30U,
  0x3cbc6bdb3e0ed9deU, 0x3e19c823be8c4f32U, 0x3e25ba953e68b37dU, 0xbe5c76e8be1dbdaeU,
  0x3db1129c3d2ad4b0U, 0xbe1c40983e790cc1U, 0x3d332cba3e908bffU, 0x3e31b89cbe65fa69U,
  0xbddc5d123e27613cU, 0x3de0ae18bd251991U, 0x3d82f42fbe166c36U, 0xbd048badbe3b714cU,
  0x3ded4b28bd9315ceU, 0x3e0918d13e0e2407U, 0x3e451fba3d02a160U, 0x3d5b9cd83deb8fbbU,
  0xbdc4e474bd81d6d3U, 0x3e395babbe146130U, 0xbe5180563e49dd54U, 0x3d116dd5bda5c1a0U,
  0x3e289fe1bd2eb130U, 0xbe0a39e2be09eccdU, 0xbdc3dda53e36c92eU, 0xbdcdff06be1691caU,
  0xbd68ef24be39174aU, 0x3dca05673e0e355eU, 0xbe8495b6be5bfafdU, 0x3daf015d3e370859U,
  0xbdca08323da736e1U, 0xbe1efe433d26189aU, 0xbe06ff073d2366e1U, 0x3d6a48563e1c330fU,
  0xbd8d56a33ce9c61fU, 0x3e0726dfbda3f54aU, 0x3db6c4e6be357df8U, 0xbdc25171be51bd6dU,
  0xbd385dbbbd20c937U, 0xbd0cbb7bbe08b7f8U, 0x3e12c6943e10fa87U, 0xbdebae7c3e14ed73U,
  0xbdf1743ebdab4a89U, 0xbe047990bdfa2d39U, 0xbc840c39be00ff45U, 0xbda8b73dbd162a17U,
  0xbd837f40bd8022b2U, 0xbd795fb9bd1c9980U, 0xbdf4fc5ebc411cf4U, 0xbd68689fbd834ce0U,
  0xbe267dc0bd846d37U, 0xbe1f27cc3e071b6eU, 0xbd666055bd5d50e9U, 0xbda6484ebd57e90eU,
  0xbdf74193bdc50726U, 0xbdb8a8a5bcc4cb41U, 0xbdd62ebdbb1f2cd1U, 0xbdaa0386bdcfa9c6U,
  0xbe2d00b8bde1ecf8U, 0x3c66cfd6be16b7fbU, 0xbda5b9e83b481849U, 0xbcdaf050bd8dfb31U,
  0xbd542bc8bd86b509U, 0xbdd42183bd12902cU, 0xbd993928bd1acf49U, 0xbd91a6c13d7d92e6U,
  0xb8d15b64be03edc7U, 0x3ccbf4b0bb257b01U, 0xbd259f98bcd1ae20U, 0xbd8390973d02eb1eU,
  0xbc4f5811bd62b0e4U, 0xbd4428d93c73c990U, 0x3c0f7a77bdda56d3U, 0xbe090172bdb12f92U,
  0xbdbedf46be15c23dU, 0xbe4a8672bc821b13U, 0xbd7f392bbdee675bU, 0xbcc9918cbd93fa2aU,
  0xbdc683a9bd12d225U, 0xbe130481be0e418fU, 0xbd09b13fbe0d1fa5U, 0xbd57bec7bda73614U,
  0xbd91770dbdc2e556U, 0xbe010506bd96a386U, 0xbc528ac7be082897U, 0xbcdb32663bf6d5b8U,
  0xbe0fea6f3d02f4e9U, 0xbccf4f8abe2aba6fU, 0xbbfb2ffebe127866U, 0xbd788c16bd33e7e4U,
  0xbda0be4abe1718ffU, 0xbd59cda1bdeda33cU, 0xbd0dae1f3bc628d6U, 0xbd785f97bd3a6387U,
  0xbd2cdfccbe0755b1U, 0xbdc3c83fbd059f1bU, 0x3cec8ee6bc9027ccU, 0x3d0a7a42bd1bf303U,
  0xbd739343be1ee7c5U, 0x3d37580dbd80b6e2U, 0xbdfecc85bd9d56f6U, 0xbd83892ebd549342U,
  0x3c32ccb5bd423957U, 0x3d29731bbdc83e0fU, 0x3c4f32b6bd699a8cU, 0xbda8c6d3bd5cf1acU,
  0xbeef925dbef123e3U, 0xbeec6f51beee9181U, 0xbee94c45beea5b6aU, 0xbee6293abee7babfU,
  0xbee31c56bee3f7d6U, 0xbedfe322bee174a8U, 0xbedc856abede519cU, 0xbed99d0abedb5e05U,
  0xbed5bfdfbed7777eU, 0xbed33cebbed4e878U, 0xbed033e7bed1cfcbU, 0xbecd604ebece53c9U,
  0xbec9edcfbecb7f55U, 0xbec6cac3bec9108bU, 0xbec3d884bec548a5U, 0xbec084abbec1b924U,
  0xbebd61a0bebf19d9U, 0xbeba7089bebc2c10U, 0xbeb71b88beb8ad0eU, 0xbeb41cd0beb5884aU,
  0xbeb17e6cbeb266f6U, 0xbead67debeaf5b56U, 0xbeab36d0beac5b50U, 0xbea76c4dbea8ef56U,
  0xbea4a1d3bea563b4U, 0xbea19d0fbea2b7b5U, 0xbe9e557fbe9f9f9fU, 0xbe9af352be9bca92U,
  0xbe975b08be9918e5U, 0xbe94b26dbe967289U, 0xbe917e91be930ab2U, 0xbe8e9562be8ffcb0U,
  0xbe8adfc3be8cd0d2U, 0xbe87ee85be8922e2U, 0xbe85ca1cbe8685bbU, 0xbe81cadcbe83d88fU,
  0xbe7c9fcebe800287U, 0xbe77461bbe7a26efU, 0xbe7060e1be73b780U, 0xbe6a9e29be6da6ecU,
  0xbe653912be67c8efU, 0xbe5e6ccbbe61d1abU, 0xbe58690dbe5b99dcU, 0xbe513536be54bfb7U,
  0xbe4b415dbe4e4d38U, 0xbe450030be48a896U, 0xbe3e3a3dbe414091U, 0xbe37d197be3afc28U,
  0xbe31f6fabe34c310U, 0xbe2c2d36be2f4796U, 0xbe255b8fbe290d52U, 0xbe1efd22be2283daU,
  0xbe18db5cbe1bbdf5U, 0xbe129f12be15ee00U, 0xbe0caf9abe0fa0b7U, 0xbe06e328be09b2f4U,
  0xbdff7491be036d2cU, 0xbdf127b7bdf83663U, 0xbde6a767bdebdd14U, 0xbdda70bfbde0cb18U,
  0xbdcd625cbdd378c4U, 0xbdc0a4a9bdc66f35U, 0xbdb38192bdba5167U, 0xbda8a816bdadc5afU,
  0xbd9b58d1bda1e6d5U, 0xbd8fddfebd95c041U, 0xbd812eecbd889129U, 0xbd68a655bd74fa34U,
  0xbd515cabbd5c5777U, 0xbd397727bd457d72U, 0xbd203416bd2c6b1cU, 0xbd067208bd136db3U,
  0xbcda8fc3bcf4f361U, 0xbca692e4bcbf0b84U, 0xbc6ecee7bc922c1bU, 0xbc093eadbc3c444dU,
  0xbb1470cbbba6d5b4U, 0x3b7fe2433a4330f8U, 0x3c2736593bf07bbdU, 0x3c821cc23c510d46U,
  0x3cb710013c9bcdedU, 0x3ce645873ccda6b5U, 0x3d0cfc053d003e5dU, 0x3d279c513d1affa5U,
  0x3d40852f3d33e5a0U, 0x3d5b2ba53d4ce909U, 0x3d7245993d669884U, 0x3d840d333d7c6c8dU,
  0x3d921c8f3d8ba7c9U, 0x3d9e456d3d984ddcU, 0x3dab3b3b3da4a764U, 0x3db8758b3db1a4abU,
  0x3dc459f63dbf131eU, 0x3dd0b98f3dcacf77U, 0x3ddd666a3dd706f7U, 0x3de9ac643de401a6U,
  0x3df6bf5b3df020a5U, 0x3e0180153dfd74d8U, 0x3e07b87a3e0489dcU, 0x3e0d7dc83e0a7e0eU,
  0x3e13e4e23e10d22fU, 0x3e1a931b3e17111eU, 0x3e20c7cf3e1dd3d3U, 0x3e26db723e239969U,
  0x3e2c5ecb3e297425U, 0x3e337b683e3070c8U, 0x3e3a1a9b3e37198cU, 0x3e403cde3e3cb65aU,
  0x3e4616d53e4390a2U, 0x3e4d84a53e493bceU, 0x3e5310db3e508a2cU, 0x3e5a11623e55f406U,
  0x3e5f4d343e5cdd52U, 0x3e65bf693e63036bU, 0x3e6bf5813e68a423U, 0x3e724ef43e6eb92cU,
  0x3e7820263e7455fcU, 0x3e7e249f3e7d1720U, 0x3e829c363e8120eeU, 0x3e8614ba3e84d658U,
  0x3e88b5db3e873c46U, 0x3e8bbdda3e8a6e69U, 0x3e8e6eaa3e8d8fc2U, 0x3e9244543e90b2ceU,
  0x3e95675f3e93d5daU, 0x3e988a6b3e96f8e5U, 0x3e9bad773e9a1bf1U, 0x3e9ed0833e9d3efdU,
  0xb0b6a2a5c16289d7U, 0x80aa72b45b7e7e9cU, 0xba7cc9a15fab4e51U, 0xbd8688d07fd36489U,
  0xacb1a09f7cb1acb3U, 0xa1876d7c76aed0c2U, 0xbdc68fbbb95d7475U, 0x7ac8d0785e5bcfb9U,
  0xc86dc4738e7ab279U, 0xc55777b7a892a8bbU, 0xbb89758c679f49a8U, 0xc660b18d7bba76a3U,
  0xbe7b74aba5adb782U, 0x93c5adb46e709084U, 0x9172b4ceb597775eU, 0xc68bbfa7ad4acc9cU,
  0xb3b09f81c5c37aaaU, 0xc27b969877c6b087U, 0x7578899d69948679U, 0xbcac748b859f939cU,
  0xbd77c480d2b68f78U, 0xc7ce719cabbb7e94U, 0x68d975bc8b9ac994U, 0xca995b9f738adf80U,
  0xdaa3beb38079ad7cU, 0x89c4b4ca95ae93c9U, 0xb669a098887fbc62U, 0x99a2a66c6b81c483U,
  0xba71ceadc578907bU, 0x9560ce5883a064a9U, 0x7b83cb7f9a64c83cU, 0xa580d7c575b459bbU,
  0x7b7371714d68c382U, 0x7d7c6cca7275923bU, 0x924aa4e38f9de492U, 0x9d3da06e9c59abaaU,
  0x99b67f92a77799c8U, 0xd18b79624b7e9075U, 0x81a1a3969181a39cU, 0x71e18ba08dbc90e9U,
  0xc9da9daa7990907aU, 0x7dd6b5d2c33bb7bbU, 0xc992997762ad5fc5U, 0xbb97b44bc3756bbcU,
  0x61c88ba39ba68668U, 0x94c88fb550b7b39cU, 0x6fb04eb6bc36ad87U, 0x859164bbd3527e49U,
  0x67b28d6c90595d74U, 0x7ebf75bf6a85896cU, 0x8677868ead72c78eU, 0x71656598b5678e8eU,
  0x965fc1775b725dc1U, 0xae8ab88772c19facU, 0x758bbfc868b7a8b5U, 0x6d7777ae5cb5c7c1U,
  0xa87a8769c8b4cc9bU, 0x8f5d61b68cbc67beU, 0x74ac8665b5848165U, 0x7a8972798d79b67fU,
  0x92b4af86bb76856dU, 0x959ea277af7cb881U, 0x7a5eb0a2b56963c8U, 0x9a878bab858a8c93U,
  0xa5cc5e64528cb17bU, 0xb5917dbf9a689076U, 0x7fa35b7bb393b8adU, 0x909aa9c9d0709ea6U,
  0x93ba6b8582c89adaU, 0x9e8e88ba668c8e60U, 0xa0a8a985a2c18fbcU, 0x9287b370a6bd598dU,
  0xccb5a6e863a6cb80U, 0x89ccd1b381bb75b5U, 0x338386bb94e19068U, 0xce8e7b99d285405dU,
  0x87b792b680c67068U, 0x77b797e5b67ad4ccU, 0x71a871afc88d95b1U, 0xadada25b9bb29070U,
  0xd28cc3c4b29ded91U, 0xc397838da6d39da8U, 0x7e43d39d94ab9d54U, 0x9c70a88099608eb2U,
  0x4b975c834bd2a270U, 0xeac09f90915f5292U, 0xaf8ecdb35dcac0bcU, 0x7e969a908ea0b357U,
  0xb56ecca1de688da7U, 0xbe8197b2af6d69ceU, 0x6286e271797c9f5dU, 0x71cc7b8b8375c27bU,
  0xc78b93825b78b5bdU, 0x6c806583717a9c75U, 0x8ec28da8c35443b5U, 0xb3aac956af88798dU,
  0xb767cc9d729d727fU, 0xa5a4ce56788d3dc1U, 0xc3a04492ca8191a4U, 0x7db4b3dab279a4c3U,
  0x9ba67693acc1ca96U, 0x7277be83ab809198U, 0xbb85a7c59cdb756fU, 0x76cc9ca7be8c948cU,
  0xbfc7a4ac8bbe7ebaU, 0x7459a468a27c7f7cU, 0x7b8bc36b7a8dd5b0U, 0x8e99a684d19ea68fU,
  0x8d7d70d689725acdU, 0x87597dd882b6db70U, 0xaac2869c8dbc6dc6U, 0x6e71a5a4a58c9ca3U,
  0x804b6b87a983b9baU, 0x6f92a4ca998fa170U, 0x69aad6bc5fb7d8d9U, 0xa7bf9aaad570988dU,
  0x8186af537445a2ceU, 0x62bca1d26594cccfU, 0xa38eb3af7c848860U, 0xd0a28e77b997c9d5U,
  0xb2b3b6b1c278ac72U, 0xb8cf5ba8884e87daU, 0x7b84ce966a9259c2U, 0x8a9cb06e8b95a7a6U,
  0x6f3ec035d7759046U, 0xaf858d8559baba9aU, 0x867a5f6bb5d45ea5U, 0x5c83acc7647b9083U,
  0xd3ab7a5aa097a962U, 0xcbbd574c914270cbU, 0xc7ab3bc07d9f7f96U, 0x6e6a5a99bc62aadaU,
  0x6eca8a9964d47da7U, 0x8b79877088a4b779U, 0xc9a1c3cb8cbb676cU, 0xc6a2857ec5bf99a3U,
  0x907d8085abc54f65U, 0xaf8ec57a59abaa49U, 0x64947723bb92afadU, 0x868195b4c4766090U,
  0xa8d7bdafc38e22c6U, 0xdbc5bda8ddb2d990U, 0x969d9bd8a7bfc993U, 0xb5cb796ebf787367U,
  0xbdac436674abac97U, 0xd67e5da157b0b6baU, 0x57c06a7aa77a93a8U, 0x7bacc666c057839aU,
  0xbbc5a7a488897c77U, 0x8490c09c967dbcccU, 0xa852d79ab6c07593U, 0x8d5ebe70b7ad8b80U,
  0x67c5a29b9eddb7aaU, 0x9d63cc617c8e5d6bU, 0x4772bc2bab718089U, 0x7bcbcc637d9e6bdeU,
  0x7a56af41a6a17d71U, 0xc9a3cecca57c7b9eU, 0x897574a66b79608fU, 0xc9bcce4a7ac17897U,
  0x567675bec8cc9daaU, 0xae7e74c165b983beU, 0xc490809bdb63398aU, 0xb79a8a9987899d56U,
  0x9f5c6d6c9a539b6aU, 0x9986caa7ac728d3aU, 0x7c4da079c998947fU, 0xbbab8f6a51985b7bU,
  0x8476a382bf4b95a7U, 0x4b6468c4d19b6fc3U, 0x7fa3957de3a5b38eU, 0x837bd6c282a64f92U,
  0x918f7b78ddb59bc0U, 0xa652b085b0448d8eU, 0x98cf96778a968c61U, 0x72c854479890c0caU,
  0xef999085428e7280U, 0xc9df963b5c8999a6U, 0x98a098c3ab6acfa7U, 0xd7caaf9bd5c4cd94U,
  0x7591777ec4ab9e52U, 0xb45fa2a78fcd9a8cU, 0x878c993b2e727791U, 0x91ca5971abb8b784U,
  0x7cbc9ec8c98bbd6fU, 0x6893958095cf77caU, 0x4c97b49bb1d1cc9aU, 0x81997d957e827a88U,
  0xb68569abd18d47c4U, 0x66555a4c8fa36499U, 0x91c2c3b5d0bb79b6U, 0xd7a89cd19ecdacc3U,
  0xaf35875b6f8152bdU, 0x99c28e88728968adU, 0x9e77b8b26b48ca60U, 0x4f696a8cbed31485U,
  0x86baabece7948c80U, 0x2a7dc462a88f5f85U, 0x50a17d4a9e7b6e13U, 0x90b43d2383a27180U,
  0x7bcf1cb7877e837dU, 0x1d9fa58179536d81U, 0xbe94b49f6a8382dbU, 0xa963b289539577c4U,
  0x574884b7b18fab58U, 0xbb8e8654a855bfc2U, 0x9557b0323bb95075U, 0x5b5aa0b6108b927aU,
  0x6c7990969987c4b5U, 0xb478bc60cc7ab95bU, 0x7b55699ebcdbb2cdU, 0x71b6bfa5727d9cd2U,
  0x97c77c96b76968d1U, 0xbf6b9cb352a57484U, 0x95b87162c1825e78U, 0xb19c8699d0b4698bU,
  0xa6745c98b3b87bbaU, 0x7eab80a2c081c251U, 0x629b63bd56d79fc5U, 0x999586aaca8d9dccU,
  0xbe605194739fbb63U, 0x9b62bb6657a0b48aU, 0x7795d48aa4bdc5c6U, 0xd673688a9062b1a1U,
  0x96706e8cb29b959cU, 0x547f7f69a66864a4U, 0x5a73796159739d7fU, 0xb0a6a96458af816fU,
  0x68447689b07cb7a5U, 0x887a4eba5d59ab9dU, 0x7d6cb2bc659ba2b8U, 0x6ca5ab6f7fd284bfU,
  0x7ac46894bf798b91U, 0xa4a3829e6470cbb2U, 0xc186a9939873b7a0U, 0x6da371599cd86277U,
  0x969ac76f61a893b1U, 0xcdd794767dbc9fa4U, 0x729e9775ceb0b1a9U, 0x9088bbcc5f6c83ccU,
  0x948cda8bbd90c7c6U, 0x96a66eb997d5dd65U, 0xb7a37a949358e46bU, 0xb76f9f9cc34fae6eU,
  0x7084bfc2b58884afU, 0xb46e74b6536f71c5U, 0xbae3d2d393699172U, 0xa5708ab383c3da88U,
  0x65918effbd93a5e6U, 0x688196bd898756c4U, 0x8a4db44cbfa677a7U, 0xaf66714ce3717798U,
  0x953bb06a8ae2a951U, 0xbb7b66d295bd7ba8U, 0x9f9e6f3174997ebcU, 0x85a8b09863c79fadU,
  0x7f9fa4ccac6f8db1U, 0x979f648196bb81b4U, 0x69adcb7ba4bc9b8eU, 0x7478b3bd6d9aae9aU,
  0xced8bccec1b290d2U, 0x88b48cd6c0b8bd95U, 0x82bc7588a6b898c6U, 0xbd55da85656f9871U,
  0x6e8a807e7fc754c4U, 0xbee67989aa6090c5U, 0xac9382839681b5acU, 0xd770588ec3d97c89U,
  0x5bcb7f7887628c76U, 0x90ac95b4b463985eU, 0xbeba85c2b38aaca2U, 0x9e5086a580a39fd1U,
  0xaf9aca9383576da7U, 0xcddb90707464996dU, 0x954656798a7be9cbU, 0xa932c1e387867ba4U,
  0x8eb8449314bcad88U, 0x769db77a869cdfc2U, 0x7b7a5e60509f3b75U, 0x5e3692a49c7188caU,
  0xbda97ad58aad805fU, 0x7d678748c8948b9bU, 0x865f8ea199a2723dU, 0x6a3fa39cb9c86a4dU,
  0xa49e7b9eae98a3d7U, 0x737ba1389a7a804dU, 0xc661b0ca71c1a0c5U, 0xb27fc36fc94a988cU,
  0x91c095be64ce6eb7U, 0x90ab8c977c9fb897U, 0x607697cda9a8449aU, 0x555cb26eada76868U,
  0xcb5a815fa7c09a7dU, 0xa18ec588aeb5b241U, 0xbca0c1718d48afe2U, 0xb9abb352ccb67148U,
  0x7b7a915e9c68b052U, 0x62937d889fdeb788U, 0xba77968ad15d538eU, 0xb38f7bc65dac5e7aU,
  0xd27d41be7b9ea4e0U, 0xb39474b2b478a8bfU, 0x9a64ba84759e5997U, 0x79b9977784964eceU,
  0xd881975a68d25d66U, 0x9b8d27bd9fba817cU, 0xc88151a2a675c0daU, 0x72507ea0cf675484U,
  0x7479a399c1b28f49U, 0x62a3a1a9709b7172U, 0xa1bdbcb374c0c29dU, 0x55dac789b5abc969U,
  0xbbdd71879b74bd9aU, 0x3d71c0574c6f8e8dU, 0x716d9e348d7296bdU, 0x76a89bae80c3a0caU,
  0xc9b96a3fbcb99589U, 0xa554b7bdd57bab8fU, 0x557c7894899b8986U, 0x91a6cb9a53c66db6U,
  0xbacea4c37dc5c6b4U, 0xced0c8409fa786acU, 0x60cad36b5f7e7269U, 0x9e955f866b78833dU,
  0xc8a1699090545a53U, 0xa7d3a3c194966b6eU, 0x9dcd8fa673c0c07aU, 0x7065a9b5b879bd35U,
  0xae7db541bcafac7bU, 0xde858287704a6281U, 0xb8807f945b317da6U, 0x957d444241e5b485U,
  0xc09f9f8b5d7dbb62U, 0x7c954f8d7ca9734cU, 0x915c7e86d77aa596U, 0xbf72d6c6a1b75abdU,
  0x651679559f9cc268U, 0x856d7e7489b067c3U, 0x86a5bf726794847bU, 0xa09b79bdc1d85cacU,
  0xb08ca5629565c468U, 0x9894c8d16c6e70b9U, 0x9769a4717ba08e9aU, 0xea995c64a68ba39aU,
  0x5f5d859c9ebd7fbbU, 0xa760797a4a6c75c2U, 0x6770738f71caa4bfU, 0xd568c4978599cbc7U,
  0xc694bcc486906bb3U, 0xadb4ba8f7bb66852U, 0xcf7ed756d6b27248U, 0x5aa0855a80a8c968U,
  0xc781849dd883c451U, 0x9cbeb79079ab6fd0U, 0xafafb6496b8f8dcaU, 0x606f757d6f78806bU,
  0x8f5c97aed2447c81U, 0x53b5b8d3c4b74c83U, 0x7c7b83aa86c4c051U, 0x732c58a4ae874f92U,
  0x69926ec1afb8be92U, 0xddd1c19c8b9c709fU, 0xb8c99dac77a0c699U, 0x8e9282938cbea0b2U,
  0x5e82949c9e3f8993U, 0xbf97e280e282ab97U, 0xd19894a0b8e3dda8U, 0x9b686c7847917f8dU,
  0xb9a78bb79fbba0b3U, 0xc7a863a6a1a19561U, 0xb07cc186b63d7ea5U, 0xa78b746f8e98ba87U,
  0x79a5ca9fc6e37d88U, 0xa55cad2bb9a075a3U, 0x4574847e4e5c529eU, 0xa2af3369c972c1d7U,
  0x7f8987bed2b1d88eU, 0x90756c9697889f52U, 0x9182c4aad296b4c9U, 0xb263a196778edc81U,
  0xb8799fa0ba647edeU, 0xa585997b7a9794cbU, 0xb28689983c9c8374U, 0xb181c48663caac7eU,
  0x9e9a7a9fb7559eafU, 0xaac7bea1af656091U, 0xb4f3917f7d46a584U, 0xa9abafbbbe52d294U,
  0x9c908de27397bf75U, 0xc054a39da56152c5U, 0x965c7bab87afb79dU, 0x8b81717d9f98c05fU,
  0x629cc9a886c5ab79U, 0x979fbf7164536b37U, 0xa8c4be7a999089a0U, 0xcaa287a7747f9793U,
  0x5c8ab9a170ab8a7fU, 0x769ebfb9d5a5c6a8U, 0x7a6292d76a61b4c7U, 0xb79f7784ae95d5b1U,
  0xbf7fc0d590bc65adU, 0x6bbc4fc1b39bac60U, 0xe17589c8bc68c78dU, 0x963f9092c0924084U,
  0x6c5b17a84dd6b6c1U, 0x9b594889bf67cba3U, 0x295c65523a763387U, 0x69988ba49a5b85d2U,
  0xbb0ebdc5a144a299U, 0x11b25770a7b6edcaU, 0x838e6ec9aaae415aU, 0xc6ad76979e589904U,
  0xd7ab9cb9a2988f93U, 0x8cc2791db47488b4U, 0x9095927b72b7e191U, 0x9b8a76c788af7fa2U,
  0x5a909bb5deb25557U, 0xedb7a16dc38a8482U, 0x9486b390b37f92aaU, 0x6c72d67292ba7ccaU,
  0x6458a46cad6bb181U, 0x6cbf9a9a577f5ec3U, 0xb8808f5766b0606eU, 0xab7cb9d85791647dU,
  0x99965b76a87a926aU, 0xc8ab729a6aa5ab6bU, 0xb3778e95c3b990a4U, 0x5bdf87a5a8ce9798U,
  0x73de5c8175b983a1U, 0x4d98c47a7998a479U, 0xbe7d58abbcb0e2c1U, 0xbc9771b7718093a3U,
  0x876a8aa1ef919466U, 0xc6bc90a667bbc771U, 0xe3baa648b192b7bcU, 0xa374918078ba7b8cU,
  0x81b79b8b839184bfU, 0x40a3ba88b7d773a6U, 0xad9b74bb64a49f4cU, 0xca66a2b1418db1e8U,
  0xae8f68777aaa6379U, 0xc58fcce2ca759842U, 0xa76182c681acba7dU, 0x2b72c190cdee8079U,
  0x94c4bc8f8dc56b61U, 0x9b84795378849b51U, 0xb75276cfc996a1abU, 0xa75953982b869788U,
  0x8077e0b0699c607bU, 0x6c5f96af56a2968dU, 0x8fb1d195bf73aa7dU, 0xa683a26dc1cbd893U,
  0xaaa4d5ac84c1b677U, 0x7a74b7ba7078c287U, 0xa199c16484ba4dd1U, 0xa2729ea47d67927aU,
  0xbc43ce8da08e9ad1U, 0x539ac560cbd3d19bU, 0x8d6484a29b9dae7bU, 0x54a779995cb5c553U,
  0xc1746b6071b6dbb8U, 0xc85ecb9acab4af6bU, 0xa49a5ea46f6d9590U, 0xb4caaad0b09858ceU,
  0x6e4caac5a49bc649U, 0xa784b0ce73aca382U, 0x8ed47893ba50bb92U, 0x88c9a771b491bf85U,
  0x8b7b5696768691daU, 0x7b7aa468b3a999e7U, 0x42bc797279718ab3U, 0x816a88a5ad787f86U,
  0x96b5cac3b7697d96U, 0xb077b37ba76ea5acU, 0xb58d6f92a5a4723cU, 0xa867cfacbe5cbfb5U,
  0xb36b8a5b7eb487a6U, 0x828199476bbcb0d5U, 0x9bd2c37dad676380U, 0x50ba8db79878cd46U,
  0x4abb91df41798594U, 0x9865c6958085b7aeU, 0x98b2ac83b4aeb1adU, 0x9f63788da7ac98b1U,
  0x949cc38088bb9472U, 0x5a56758b697c72c5U, 0x8571bb8d85646bdcU, 0xb597788195a892bbU,
  0xa383837b905fa8b6U, 0x8d95c9d18ddbc0f2U, 0xb689b7ab4c987098U, 0xa1807b6a899d63b5U,
  0xab4cbbb09340bbbfU, 0xaa5dbd8d6b7ecf7eU, 0x73a87546bab9739eU, 0xc9acb9accea08ca8U,
  0xcfd46b539f70a589U, 0x6dd1a5be7e394257U, 0x6582508f73808c83U, 0xabd1319f9890aea5U,
  0x9e487a87abb492a4U, 0x78674ee3b4b897b8U, 0x965449bd72529c66U, 0xdda69340dbb67a5cU,
  0xb2d2a6ac7ca0958aU, 0xdeaf4e4bae92c796U, 0x71bf52a2c59ba679U, 0xa9938b9da6e3866dU,
  0x9fb0a65671967045U, 0x9db3768f8a728191U, 0x975592a5b2815b63U, 0x7d5c809daf3b997eU,
  0xdfbc9f9fa0b7a539U, 0xb8baa346b5ba739bU, 0x6897c9a4859e6413U, 0xaa84aa9f696b532cU,
  0xc676d47db68c4761U, 0xab9763c365c96888U, 0xc2df98b1b474b564U, 0x5f81b2a57d95af2dU,
  0xa072e09bc1b8ac59U, 0x77596ba185b2a3bfU, 0x98bfd05c831c6c91U, 0x958e4f5d6784ba87U,
  0xc05c6ca53d757166U, 0x52b860d192d45299U, 0x7877a16fc4c15288U, 0x8e8ccfafb7607bd1U,
  0x886daf776a729ec1U, 0x87445e915d74b195U, 0xd484bdb4a2b7694fU, 0x8b718856bca2bca9U,
  0xcab1a87a969285b4U, 0xb69f5dbb66928aa7U, 0x66d7a191a397a59dU, 0x809bcdb39193c592U,
  0x667a718550769dbdU, 0x91aab0c4bb83c6c9U, 0x775c879d3ea68187U, 0xb5915ad597a5c16eU,
  0x508ea8a07a7ba46cU, 0x8fbcc464b15c7fc5U, 0x70867988c8a1b45fU, 0x6887a19bc7858aa6U,
  0x85938684a6b08ebdU, 0x91a1c2bd94aa9f86U, 0xc45e81c9b7c5983aU, 0x7f6da6aa7b80608eU,
  0x9984a4966fa27a6dU, 0xaeacb78566ce918cU, 0xa49c80cb996cc7bbU, 0x8b92c0756176b5d2U,
  0xaba5cc89be9863a5U, 0x8ebf8990a5b47e91U, 0xd7acaabd958d65b7U, 0x5f8b56bd8384b89fU,
  0x6ea5abb5607bb866U, 0xb2dc71cb53976b66U, 0x737ea9b894a3b4b0U, 0x908a91cdc65fce8dU,
  0xa093bc68bdc3ad74U, 0x9f73bb5897bf7d7cU, 0x7aa6699594866f7aU, 0xa6cab09dc17a7491U,
  0x849b6daeada27776U, 0xb2946a92bd7c74a7U, 0xaf798ca19ea89f4aU, 0x8388829e8f9b5846U,
  0x6ca9a3b5b5837f68U, 0x79726b6972725b79U, 0xa5c09e9fd8b0b7c3U, 0x71a9ad5bbf99a194U,
  0x707a818780709a98U, 0xb28ea7a2ad675652U, 0x975583a781d39697U, 0x916764ac86565bbdU,
  0x9a81a051b0a3bf77U, 0x9173c757846897bfU, 0x96dca379b96abdd1U, 0x80c07ea8d29f80c0U,
  0xb4cabb95b784d576U, 0x9f529f878abe89d1U, 0x92cbb49e9e8b8070U, 0xd4a6969fb9ce817eU,
  0xa7bb90f1b16fc5beU, 0x6b78789fa6a19685U, 0x52d5b94a74a772a2U, 0x768d596561959693U,
  0xc89586b273a2a78cU, 0x999657cb8ec87ecaU, 0xd1b5975f5da3ad5aU, 0xa48f7fcc67bf7683U,
  0x945186938494b054U, 0x80b2db617e5cafedU, 0xba9d397c92b7a8b9U, 0xc8bd8d97a4ab80a5U,
  0x6ab4b08a6a946b86U, 0x9a77cce0e58ecbc7U, 0x6b7e82655d51a98cU, 0x904c85bac698a290U,
  0x83819999cbce9b95U, 0x9080956f71a55cb6U, 0x5cb6b4a9a8c7a592U, 0x899486878dc4ab62U,
  0xa677decfcd914bccU, 0x847dbc8db483c7b4U, 0x7ebebf79d6b0d354U, 0xc59c9dad9e7791bbU,
  0x79b8b1a09fc180c6U, 0xab5470cdbc9cc898U, 0x62939e7196a45a5cU, 0x655ba36b805bbf65U,
  0xb29ad0c8bd7972c1U, 0x9f9d52a23875ab62U, 0x3079c27899a7b7b5U, 0x9a8d51a350d7b379U,
  0xca2ec60059b09da0U, 0xdf96b9b997a5b483U, 0xaa8d83714a48dd92U, 0x63bd706c829b9053U,
  0x8fb6c7b06623cca3U, 0xa788ad75d48b9d7dU, 0x4fa49974e1807b9cU, 0x9f91b0adaecfbf5cU,
  0xdfbebb9484aa955fU, 0xb0c1b398a893ab76U, 0x8bd754c1aabf6a98U, 0x9daab4a4c0acb354U,
  0xc7747c9598a35e52U, 0x945c3fb04a9a5e8cU, 0xa294b2c632b89d6dU, 0x94929c94d46bb77eU,
  0x9bc0727bc08ba479U, 0xc6759eb35d9f5ec0U, 0xb477695042abca8eU, 0x3f9da43e90c8be5dU,
  0xc86e6e8362a19dc3U, 0x677c7f81ad8761b9U, 0x4b9edaaf73788a9fU, 0xdbcdca7ec5476c84U,
  0x7177abaa8e9969a8U, 0x5158b6d165c899a9U, 0xbe80c0b5a6b68961U, 0xd56649b574858454U,
  0xaea17cb47dca7c61U, 0x857167cb81917988U, 0x70b76f9d572b83a8U, 0xc0c4d66cabae88a2U,
  0xb3a6769e7e84b083U, 0xb0a370a4ba919dcbU, 0xba976bb170516884U, 0xb37c58cb666a9abcU,
  0x505fc68ca55dc2c1U, 0x736f7bbfb2949393U, 0x8e7c7989e088858eU, 0xd541b3a791cdcadcU,
  0xa0a1acaa7cc07bb5U, 0xc0ae6694b0cac49fU, 0xa3a2b5b8b186a9b5U, 0x6c4b84b281c2a6aeU,
  0x9cca7b9fa9aad897U, 0x99b7be679fa590bcU, 0x7692a98c67af776bU, 0x907a4a95816c9b4cU,
  0x6d91a5b1b49fcb98U, 0x8b7a5b9687a79c89U, 0x3795747e6fb6c9b5U, 0xcb71b68d6dab557fU,
  0x769e8688af92a18eU, 0x58456484a65ba995U, 0xbdad6a9497c3cf67U, 0x74b7c18483c23f9cU,
  0xa398c0daaf5d7ab2U, 0xd1a4ccb975cd49b5U, 0xbe64866e4194bd78U, 0x826f3a1e7d9c7496U,
  0x6dc082ac6155af6aU, 0xb1a6a7b7a694c192U, 0x69aaa8a76e6b7c9bU, 0x7aad52807bb46db0U,
  0x6f4e7f9969799bbcU, 0xc29cd6adc6c3b0dbU, 0xab91a1ab7a5c9579U, 0x6dae6574908f909eU,
  0x7adcc3bf6065d67dU, 0xbe7ea885a878acc0U, 0xa2c0adb18b6ab272U, 0xc4b6c29a8a8f5860U,
  0xc5cd6cabb6b1517aU, 0xa1ada99e928547dfU, 0x2cccb0876b8998b1U, 0xa26b9859bc52a479U,
  0x8dcea46f9a7ac76aU, 0x5581b1a47682bc86U, 0x77a278d2a7a29a96U, 0xc9977f669fcab284U,
  0x768e517ea4c09083U, 0xaf50ac5976a184b4U, 0xae6f96af4e7f5887U, 0x76c5cb8ebe9eafb2U,
  0xa164855c6f62627cU, 0xa767e2bf938aaea2U, 0x98bec1977bb29cd9U, 0xc3b5519c90a5d470U,
  0x95a95eb1836e9878U, 0xac70a5a4a98770b7U, 0x91935e7bc2ba9f6bU, 0x8c7fb0d67c976881U,
  0x8bb85ea2abac9574U, 0xaed5cccebcaab57bU, 0xa67db3ae6e6991c9U, 0x9567d8cab19cb486U,
  0xb9975e72d4a64a9dU, 0x737e5e8b925c5e9bU, 0x71b5a9b9bb8aa597U, 0xc17097b7a9ca7176U,
  0xb0b6cc64d7c07c90U, 0x884bdfc982996d77U, 0xe160857eba68cdd2U, 0x644f4f98669d9bc7U,
  0x68ca715f988b4e97U, 0xe34798d9a45ba1b7U, 0x84aa9f77c57c9cacU, 0x835f70aec2d48976U,
  0xe17f77335d584b9fU, 0x7c8d62b28296d99eU, 0xc0a262ccb2bb58a0U, 0x80d189c66b56df7bU,
  0x915da9b5d8616b8bU, 0x32719f8cb79e6357U, 0x277f97c2addd26d2U, 0x677f84a4a98d4f9dU,
  0xb7d0687ab3f577dfU, 0x8667b98e91b07b4fU, 0xa5b66843aa98c55eU, 0x79926d5a5990e0a0U,
  0xa2919b878f69a5a5U, 0x4998e2619b6888b4U, 0x5dc389967e67b160U, 0xcad3677f676c709eU,
  0xa7a4aca991a6ae8dU, 0x9253b48f629a84a3U, 0xa47654b278bca378U, 0x839e986ac499b18aU,
  0xc29f6a6588a661a1U, 0x8a81749ac168a4c7U, 0xd69f757ec45894acU, 0x6cbd9386c6d27f68U,
  0x9c8abe5a8b836f8fU, 0xa1819dc772b44e78U, 0xad595a84c4b6b760U, 0x8e4fc8c890b0abdcU,
  0xabcba856b4bc9fc1U, 0x69718a5dbc97bc71U, 0xbec68e96dc5f6796U, 0x518ed9a452aeae70U,
  0xabbecfc27075a383U, 0xd9777065c24b8488U, 0x907b6f66a77553beU, 0xc86c7c8bcbdd94adU,
  0x82d2d6949e6f73bfU, 0x55d5908a63c370aeU, 0xcbd573b38fa4ae27U, 0x60cea79bbd4dc474U,
  0xa492c0a3be79aa7fU, 0x8d9e8b9fd09e88cdU, 0xadc0a3e041bbc46bU, 0xae82907c828dbdbaU,
  0xcc73a8907d725d80U, 0xccba667571b9a9baU, 0xc280bbb1a4c3a4a8U, 0xb1bfa39eb47daba6U,
  0x9c9f99bfb4a5b3ddU, 0xc96e636d6b8268a2U, 0xc8758990cc8eaabcU, 0xadb0be70719154cdU,
  0x9ad6827f8e99a2bfU, 0x83bc849d956b87b0U, 0x7e4777c68bb3d2a6U, 0x3aa1747386b78947U,
  0x66c4b18bb18185b0U, 0x6a937b977f4d96a8U, 0xafb1b9c7bdb2abb6U, 0xa67467dd409b77bcU,
  0xa1959ea06b9864abU, 0xa3376ec17ebab3bcU, 0xa3a886509c7470a3U, 0xa7c4a794b4d480c1U,
  0xaa63d364ad667a6bU, 0xcc6690bcb29a97cbU, 0x77b39b999190879aU, 0x54859f716885aba5U,
  0x7d929a99d59da570U, 0x709295b3d7c35f7bU, 0xd486a1b8d3ab418dU, 0x816583b9cf599fd4U,
  0xc98e8f89cf89d4bcU, 0xa1b0a6b3bea950d4U, 0x7a829f868161aa83U, 0xb579b896c8c6b299U,
  0xa5b2b1ca993fa1c5U, 0x8fb3617562c3958eU, 0x915bcd7067cd73c3U, 0xb3718f89819c9dc7U,
  0xb5cba7486ebfa5b3U, 0x6bdb7285ddadc3a4U, 0xc071cd95aa68c3b7U, 0x849c9dbd874c829bU,
  0x8a79bba1995faf83U, 0x7dbd9fbbc7a5c69eU, 0x5b9370708476bca0U, 0xc967619c7a60bf71U,
  0xa594487a6db6c872U, 0x46c692c69e90919eU, 0x8d7e8aeded967ecaU, 0xa28c62ab94adbd73U,
  0xbfb48e4976beb0baU, 0x82876471b36d967dU, 0x6c9e54646cc193bdU, 0x6f798d7077cba8bfU,
  0x7d85aea4aac2bb67U, 0xb2c5e4bdde6aa66bU, 0x858c7d677d98ca49U, 0xddb8aba1c4c5b6c4U,
  0x73a06a90b8d3b872U, 0xb8a6966ba29a467fU, 0x842eaac0738ba79dU, 0x9876b95ecb5a8165U,
  0x99c0dbc96cb6b07dU, 0xbbbccfb07fba9764U, 0xbb7e908b7d9b70a2U, 0xa0b097b463906b9eU,
  0x6d5f8a858d6f85a7U, 0xd16aab75db8bc52dU, 0xa981d2dfbc962773U, 0xbdae906d809d6b54U,
  0xb4689f8ea8984cbeU, 0x9eb8967f777ebe5dU, 0xa89688bf73d58868U, 0x6ce4c1888ebdaba7U,
  0x5584cd93a8c6ac68U, 0x9fd375d19685acb5U, 0x9f56d16c9e377484U, 0x72a63a6bb0c38086U,
  0x85c1bfd1c36ca780U, 0x74958bb67e97875aU, 0x7c507699a26faf61U, 0x785e7eb2af41a95eU,
  0x5ba760716eaae2b5U, 0xb09b6869c8d979bbU, 0x4e5f89bf5abfbab2U, 0x84bd5a9b6dba94c8U,
  0x8bb18e8471c18277U, 0x798cbbc767a57ee1U, 0xb6bea7b09a76c47dU, 0x95a571b5b0b47f9fU,
  0xda88a0dc69b790b0U, 0xc29f9b9480989cceU, 0x92be8a9780c373a4U, 0x887da9c98a86b391U,
  0xb45bac917b9c8c8fU, 0x685f7d4e7fc2847aU, 0xcbe1a5578589da6aU, 0x7ba4b14a6fbbadabU,
  0xa1357d84b28d82bcU, 0xbf7969869e7fd271U, 0xc19b9bad9e745d58U, 0xa06c7fa1c4c65ea5U,
  0x8aa26bbed95dd8c4U, 0x6b97b175bbc0b77dU, 0x6cbb7ca26b7db69aU, 0xc69c795fb5685cd9U,
  0x7682545f4ba070c0U, 0xaeb2b2689c96a2b9U, 0xb078bdebe09f4bc9U, 0x8e6c71a6ac7f95c5U,
  0xa5729b76abe3e2e1U, 0x61cb9d84a989b170U, 0xcc58795d82b99073U, 0x63a85a9053a56a51U,
  0x49b5bf7ac68ec25bU, 0x9265e44db3676d5cU, 0xaf7abb9b8faea8c7U, 0x46f367d4b6bf8fa8U,
  0x578058a383e5bd75U, 0xcc9faca6d35f78b2U, 0x9141799a5585b2a7U, 0x8fb7a8a2b86dd876U,
  0x98997687dfdc82e0U, 0xadd394a060d9d38fU, 0x857494a2be9e7c8cU, 0xb18b888dd5619f45U,
  0x8e5981a286c5adb5U, 0x7b654ea45298aec2U, 0x81be8c7e94a97457U, 0x5dd09a85c6919788U,
  0x91bd7a6e6abf8188U, 0xd38366b4e17aadbdU, 0xba78abb09872c18fU, 0x7ac6b46d7797cd7aU,
  0xc68483b57cc5a87eU, 0x8cb37c1ac84e6ee7U, 0x78b8627185979086U, 0x64d26284a5ca9f8fU,
  0x698a807fc9997896U, 0xac84ba9471643c8aU, 0x9186e09b7f7c7bedU, 0xd58ab3757b4997aeU,
  0xccc15c9c3e59aa9eU, 0x83bd4e70b8b16abdU, 0xbb78a47542d2779aU, 0x8696d85459868958U,
  0x9c74aa375d9db0bfU, 0xdec86bbb9b88699bU, 0x97afcb9aaa60cc78U, 0x6a5b619cd99737bdU,
  0x846170df8fc39477U, 0x386fa37296676680U, 0x468f5d9d71cc7f40U, 0x80bf48567ed7779dU,
  0xc7b65fa3a477d077U, 0x8ccfa4b561b5b777U, 0x8962bacda9769e98U, 0xc0519bb13c48c9baU,
  0xcb6687897380a87cU, 0xa78e5f6a6f5d8967U, 0xa54f5b51027152a7U, 0x69d7df8827d46f87U,
  0x86a367a1bf9ad56dU, 0xbd68df70a3537560U, 0xabd19272b633b5ceU, 0x8bb47c9653c4e1a3U,
  0x4c5bae5716a6da40U, 0xcc339f9d674f96a5U, 0x634e78327bc175beU, 0x7a7b854ca310888cU,
  0xae79bcba9853d57aU, 0xc2e7924da694b0b9U, 0x7bbbdd7becb477d5U, 0xb682c58fa91ca038U,
  0x7d879699aeb69b91U, 0x4c8a380d6bc386c1U, 0x70c96a9c75c4c18cU, 0x46a3ae7dc74b7dcaU,
  0xc8b95d5fbb8fcb8bU, 0xa19fe26e6281af86U, 0x98ac879d8d62b372U, 0xb9e7c8a55c8aab71U,
  0x6c71ba516382d853U, 0x62825dc7aa9bb49eU, 0x88aaaeb0bc9fa09bU, 0xc7647b6b6b6e845bU,
  0x97b271c1b7acbc8fU, 0x896bbc9380d1a785U, 0xba89cfafbfac3d84U, 0x81bc7f92a8a0b75cU,
  0xcc5082b7e481e2e2U, 0xb7b08488a1a67096U, 0xc39a917d9c987078U, 0xa9b1b087af7783c8U,
  0xc0aca6a586aca6a8U, 0x5184737e798a7fd0U, 0x878cbc67d27081b2U, 0xac8bb1c1ad98b87cU,
  0x6fb7b5c77b5f7d90U, 0x8cab5f946492906aU, 0xb4579d90b04bbc60U, 0x917d6ac3099d715aU,
  0xe79b7c5b8a8c6d78U, 0x97a8b7b88c98d28aU, 0xca8f7d9fd4996784U, 0x707fbc868bc487acU,
  0xb689b974b0b6c5a6U, 0x97bfcfbd87c0948bU, 0x84cba33ca0b85a9bU, 0xb2c84fa274bbbe72U,
  0xe84f69b8da9bb487U, 0x889f759fa165b5c4U, 0x9c9798a49dab45d7U, 0x97b7516977b69674U,
  0x6163708d85cba472U, 0x7586bc9785995dacU, 0x6bd2ba997184945cU, 0x79bca674508dd663U,
  0xaac3b2b6b8b69cd3U, 0xd182a5a7977aaca9U, 0x92647888abc1ac5eU, 0xa282cd84c75387a4U,
  0x789c908170b58679U, 0x91b0a180b690d432U, 0x90d5de388094a861U, 0x4aaf61c295c28a77U,
  0xb6e174d2d0caca6dU, 0x6d9297a29bc67b55U, 0x88bccfc78948db77U, 0xa5b2926a6d77b09aU,
  0x7caccbc86ea1df5eU, 0xa8526693a5cca9f0U, 0x6f85deaac8b277cbU, 0xba669677a760a36cU,
  0x6eae7bb0b3769acbU, 0x7dcd7c7986907c9cU, 0x97d481beb0c7a569U, 0xa9b1747c639ac2c2U,
  0xcf6b72758b5aca80U, 0x51c79c5fa5ada99eU, 0xb38ea0aa6cd380a9U, 0xc79990ad7fae787eU,
  0x7570a08e638863b9U, 0x6d52716c38c647d1U, 0x8680b550656242a7U, 0x44b06f2e4089838cU,
  0x91ac859db7a3c78fU, 0x5576c543a08187a3U, 0x37a2954ca4b5a5b4U, 0xb29b549cd5af4365U,
  0x794f6420525a8cd2U, 0x7593c7b0ced8a1dcU, 0xaf9e2ac880849fb2U, 0x97ca7cd81769878eU,
  0x9e64c18c860890c0U, 0x926dc899a352bc97U, 0xe8d3bf4fb4be6141U, 0xa4946aa3b5cf0984U,
  0xbd63b9f8bc5a4b5cU, 0xbd5864dd3da16e41U, 0xbdaa6705bd072f45U, 0xbc2dbd003d033c8cU,
  0x3c82b3553cf444b4U, 0xbb224c1ebdabb38eU, 0xbca48fac3db494c9U, 0xbd1dbd4cbd771c55U,
  0xbc7f210ebd4a895cU, 0xbc125931bda6b7c4U, 0xbc03801bbba4c1eaU, 0xbcb01110bd5d7953U,
  0xbd8460a4bcd4abf8U, 0xbc090747bd58c475U, 0xbdbf220bbca366cbU, 0xbdf94e94bd35504dU,
  0x3d1676dcbc0a90c9U, 0xbdae6b603d1a1513U, 0xbd2b1ec7bb83ccbfU, 0xbd9227923d4e7a2fU,
  0xbd6371843b8aee27U, 0xbb840e89bcb9f42aU, 0xbd369978bd015bbaU, 0x3cf3d540bd94132bU,
  0xbcdf2613bd65fa68U, 0xbb1f8383ba8d6955U, 0xbd107dda3c048c3aU, 0xbdd55e0e3d70e76cU,
  0x3d4e76c0bb1b1a4cU, 0xbd9a27e3bd92a635U, 0xbd8a25a8bd3c3c96U, 0xbd0f9b90bd602aa9U,
  0xbeda8b2ebedc6a98U, 0xbed6cc5abed8abc4U, 0xbed2a05ebed4ecf0U, 0xbecf4eb2bed12e1cU,
  0xbecb8fdebecd6f48U, 0xbec78b49bec9b074U, 0xbec410edbec6a8b7U, 0xbec05363bec232cdU,
  0xbebc948fbebe317aU, 0xbeb8bc62bebab525U, 0xbeb56bfebeb700aaU, 0xbeb139abbeb31594U,
  0xbeacd4b6beafd7f8U, 0xbea9cae2beaca220U, 0xbea6647bbea80190U, 0xbea222e9bea51e52U,
  0xbe9e83b0bea0e4feU, 0xbe9b2a94be9d2b66U, 0xbe96b11fbe98f86eU, 0xbe933699be94ec0cU,
  0xbe8f07ecbe913363U, 0xbe8be8d8be8d4369U, 0xbe8852b4be89e9c3U, 0xbe85403dbe86ca99U,
  0xbe8110fbbe82ae64U, 0xbe7a611ebe7e3802U, 0xbe721e5cbe7680ecU, 0xbe6aae8dbe6e1e45U,
  0xbe633309be67660fU, 0xbe5bd84abe5f5d4aU, 0xbe55133dbe578e0aU, 0xbe4d25b6be5087c7U,
  0xbe44ecc5be4931e7U, 0xbe3d26f2be40f785U, 0xbe35e021be3a089fU, 0xbe2e5a8cbe31fc54U,
  0xbe277d02be2b4ddcU, 0xbe1f701fbe22ccc5U, 0xbe181043be1c296dU, 0xbe10d966be147a33U,
  0xbe0a0961be0ce2dfU, 0xbe024090be06bd30U, 0xbdf4dbecbdfb5e28U, 0xbde5f322bded408fU,
  0xbdd7b0bdbddddc3cU, 0xbdc99009bdd18457U, 0xbdbac638bdc2e179U, 0xbdabecf2bdb466aaU,
  0xbd9b549dbda3893fU, 0xbd8c17e4bd93f4efU, 0xbd79055dbd84e481U, 0xbd58b199bd68f562U,
  0xbd3fcd7fbd4c9e1fU, 0xbd20ade0bd2ff2baU, 0xbd00c7e3bd112525U, 0xbcc85ef9bce78a6cU,
  0xbc8b6b2ebcae8d6aU, 0xbc119dffbc5f9edbU, 0xbadbda37bbcaaf18U, 0x3ba9468d3aff8113U,
  0x3c6455ad3c10711bU, 0x3c9d447d3c8bd8feU, 0x3cd991743cbe14bcU, 0x3d0784c63cf39b70U,
  0x3d24853b3d173cafU, 0x3d45c5e23d39d03bU, 0x3d663a683d57cf6aU, 0x3d8011c93d73a403U,
  0x3d90a9c23d8663e2U, 0x3d9f4d693d9874e8U, 0x3dae144a3da67393U, 0x3dbca7c93db53345U,
  0x3dcd2a063dc5c3c0U, 0x3ddbc46e3dd4d1c0U, 0x3deb98a43de2e79eU, 0x3dfca8fd3df0d458U,
  0x3e0486af3e018d0fU, 0x3e0bdfb03e07d329U, 0x3e1332e73e10016cU, 0x3e1a49743e172189U,
  0x3e21d4673e1ec71fU, 0x3e291c243e25208aU, 0x3e313c0e3e2d3694U, 0x3e38f3ce3e34a6caU,
  0x3e3f2d6b3e3c7cb3U, 0x3e470b333e42e109U, 0x3e4f08a63e4b534dU, 0x3e5546b43e521b56U,
  0x3e5e9ca13e5ab2b6U, 0x3e64ef1e3e61e2f8U, 0x3e6d51763e686c2dU, 0x3e74b0033e707dcdU,
  0x3e7c17583e782b7bU, 0x3e8141e53e7ea712U, 0x3e85e3fe3e840b07U, 0x3e89128a3e87de72U,
  0x3e8d7a423e8b7bd3U, 0x3e8fd4d53e8f54eeU, 0x3e94441c3e92eefcU, 0x3e97b4443e96320aU,
  0x3e9bc6563e9a202fU, 0x3e9ff79d3e9e2608U, 0x3ea4221d3ea19dd6U, 0x3ea65b743ea55caaU,
  0x3eaac63e3ea834e1U, 0x3eae5cbe3ead7ee8U, 0x3eb278903eb09926U, 0x3eb637643eb3e67dU,
  0x3eb98fda3eb77d15U, 0x3ebe38813ebbdbf3U, 0x3ec173e03ebf9476U, 0x3ec532b43ec3534aU,
  0x3ec8f1873ec7121dU, 0x3ecc91323ecad0f1U, 0x3ed06f2f3ece8fc5U, 0x3ed42e033ed24e99U,
  0x3ed7ecd73ed60d6dU, 0x3edbabab3eda9899U, 0x3edf6a7f3edd8b15U, 0x3ee329533ee149e9U,
  0x3ee6e8273ee435faU, 0x3eeaa6fb3ee8c791U, 0x3eee65ce3eec8665U, 0x3ef1d9553ef04538U,
  0x3ef5e3763ef4040cU, 0x3ef9a24a3ef7c2e0U, 0x3efd611e3efb81b4U, 0x3f008ff93eff4088U,
  0x9d826a7f56634f4fU, 0x4aa0a09c5f6b2c44U, 0x369dc9bb63956659U, 0x4e5f4567a98b9154U,
  0x8c78738191591d39U, 0x969d2d85857e7487U, 0x5e86b0aac53c3784U, 0x42386f547ea338b8U,
  0xab7d893a69799f7fU, 0x5c4d7ccbb27763adU, 0x9e8bb13b7658b142U, 0x155f587f55283c46U,
  0x5e748b805f35536dU, 0x46a466755b20b471U, 0x9cc79139bb3a3a51U, 0x355fb7887148f08dU,
  0x2e8654386c4282a8U, 0x6895473744669927U, 0x8e87616d52a8435bU, 0x986d8f8a678f7482U,
  0x9338b46250878bacU, 0x36ca5d924f5bae81U, 0xaf5d905e4c897f4bU, 0xb0b274ae917c1b94U,
  0x389d929b9a78649aU, 0x937f84d6b692bc9fU, 0x6d81853698b1863dU, 0x395374863f5c6f69U,
  0x5c545a52966b6383U, 0x4c414fbc818e6cacU, 0x7491b96eb475728cU, 0x3054953b967dd8acU,
  0x399697783e304e3cU, 0x87607fff7963675fU, 0x965d9d7eb95f6037U, 0x41a2b7546b0bdb96U,
  0x523a1a6b75962871U, 0x7e8a954f9990474bU, 0xafb235828e39925dU, 0x57af761fb7bbd6bbU,
  0x45483e4d41886c91U, 0x6056a588946d395dU, 0x4c8b5173af68a8bfU, 0x2e558fbbb2bb7a76U,
  0x442fc6342aa1544eU, 0x8c4838836564577aU, 0x2f3e646a34825762U, 0x6367485b5c2e916fU,
  0x4936aa3ea35dbb33U, 0x529349a59478cb5fU, 0x957596454f24c386U, 0x539fc49b854a56d1U,
  0x4e82568d3a4e6b83U, 0x854962a85382937cU, 0xc5415e49b5336b60U, 0x47d9c348a4afb198U,
  0x5e70b73fb94d8362U, 0x16b8376e75d68875U, 0x3b822382879e5f90U, 0xbd547147556d768aU,
  0xbd79688d739388b2U, 0x58b0508abd7b56aeU, 0xa3b735a56f974161U, 0x279a915278954187U,
  0xb19f32856147694aU, 0x7d92a334b6845980U, 0x694cad56996ba8a4U, 0x1f563523aab13b6cU,
  0x70368d879e673f61U, 0x2d484ebbac34a632U, 0x813b6a809c274167U, 0x784b979e388573baU,
  0xa24d88b64bc6af67U, 0x9563964c70496076U, 0x3b1b2f874e624566U, 0x324ca8324e674953U,
  0x7e7a3f767f8fa9bbU, 0x537aa73f40703e58U, 0x558b5778839656a1U, 0x50a2493124887516U,
  0x6060ae287e7ba2aeU, 0x187c5c248ab04f5cU, 0x459b77a66d723c52U, 0xc7bb2c9d89572f46U,
  0x9e8e403d7690aaafU, 0x6aa5f774a4bc4095U, 0x498f27a681559e76U, 0xd9972588b0154290U,
  0x8ca26c55818e8024U, 0x559762757a363c47U, 0x786dc12eaaac8caaU, 0x3836991c528c5d4bU,
  0xa17281478f4f137eU, 0x245d2729735a973fU, 0x47a98c8aad548422U, 0x34794b814a6b725bU,
  0x648c8746579c2dadU, 0x5841971f9c9d868bU, 0x458c4d7233948197U, 0xa031556e606f629cU,
  0x53b2366d8b7aa6a6U, 0x31a45f56605db17eU, 0x4fbf54954e3e6550U, 0xa8aa4052a3725446U,
  0xb87a6d249f3fa784U, 0x5a92658cab679473U, 0x4171bf313e53c46aU, 0x298f6aa785a9b162U,
  0x5e74c1305468795eU, 0x638f86a53c5a9333U, 0xb35d72884e27805aU, 0x7eb98a3975be432aU,
  0x847c244185946c88U, 0x7435404a5e3f5845U, 0x6b1973445734898eU, 0x63a589728b767045U,
  0x5e9d2f484da2b575U, 0x5b34ad977d9795b7U, 0x159098a593a06953U, 0xa859322f17854c1cU,
  0x7f615d5e6e81a919U, 0x668c389b555b9d7cU, 0x365e8b6da86cb95cU, 0x4c435121a2b88034U,
  0x993d592e7f5a5347U, 0x879f5d4d3b469c63U, 0x985889a546673c62U, 0x5b82ba62ae638590U,
  0x29986094b0737068U, 0x5926456d647080b1U, 0x452b5094b1986769U, 0xa33a6c528eaba280U,
  0x488b94479d57877cU, 0x4eaf3e8f687e508eU, 0x6078525f32962d3bU, 0x41867099308981baU,
  0x784e764e633438a1U, 0x706a368a9e65788fU, 0xb579b6637d355a76U, 0x367f8a8188215e80U,
  0x4d0560a65270a049U, 0xb27f694098169943U, 0xa588687a7250954cU, 0x8e386db67ca45cU,
  0x805d629a408d779bU, 0x86b4aa7c58c4561eU, 0x34259bab61ac6378U, 0x97837d3143461675U,
  0x4ab33963978580a5U, 0x4b62cda75381978dU, 0x5ca49fbb87a3b03cU, 0xa793349fb15c4f21U,
  0x8965395c39936f4fU, 0x679b7392a770594aU, 0x559e8f79c19bba7aU, 0x8c2b544589ab8922U,
  0xa03a9e7628466321U, 0x3c3149b73ab3b472U, 0x5820235f28a94f9fU, 0x4864596a8b6b5037U,
  0x918a8e44693a574eU, 0x2f3d68a7ae5eac5cU, 0xa15c59bc4d6397a5U, 0xbd8f255c8f717986U,
  0xa55e9e5e73b64eb1U, 0x52b09086a17d7d56U, 0x819f463f715c3521U, 0x34648b3c8b57a07fU,
  0x4580a95c8d737147U, 0xa37e5598436da23fU, 0xb669a55355a9bb86U, 0x92a49382413eb962U,
  0x75824432617b5d78U, 0x2381b94dada2ae6aU, 0xa9aa8c3a515d4853U, 0x2d4544a1874f7339U,
  0x63495465912a9ca3U, 0x37b199359a843471U, 0xa8995c70b845865bU, 0xb76f32a2436f6a97U,
  0x4197898f863463b2U, 0x52528344a18e5394U, 0x517e5b3329384545U, 0xcf5b58b2ab695072U,
  0xa79b30be90b35aadU, 0x816c86562a867441U, 0x6a24354d8f5e5146U, 0x386bba7b5a83295aU,
  0x8b803d9a93476483U, 0x572bbdb02ac0525cU, 0x8552b69b6f7f7e7fU, 0x8c7e595931a96c2cU,
  0x877176408b6a455cU, 0x96a349838f465b85U, 0xad8094b8553b9f62U, 0x56c13e858d5d7888U,
  0x93924d83a5ab98d1U, 0x88843d5793a37bafU, 0x86386e2f18704991U, 0x8dc45c54a9725365U,
  0x8f8816449f8b6539U, 0xc8a463c267c4e5dU, 0x7b5151655f44523bU, 0x459f75bc978c502dU,
  0x78a33a4f6510b916U, 0x9a4398846c9ab7abU, 0x568d4b7b45539362U, 0xe3919aa18e328059U,
  0x2fae994179b48f97U, 0x2e5264785094544cU, 0x668224c03c4b6b6aU, 0x8b64393349a76b95U,
  0xac83774ca269a1d2U, 0x15abd09e73775f98U, 0x6e8c4bba40a89831U, 0x21666863af44244bU,
  0x4c9f937b9f2a6335U, 0x997e2373b0974e5bU, 0x7f38699a6d82b279U, 0xa49c71b69bac791dU,
  0x6c343344745b6376U, 0x5e6d6e583e7eba2aU, 0x632f8e26676d6688U, 0x5687524e7e9b98abU,
  0x2f7a808c5913769fU, 0x8f5b41e3902fb9c0U, 0x6b45ac2f9b5fbd3bU, 0x76753a814747c258U,
  0x623a84b47c775091U, 0xa46d41794946ae4cU, 0xaf93462b703b935aU, 0x306e4e4f89cb9ba3U,
  0x7b37b77fb043447bU, 0x5775840da6846d31U, 0x716c834740c5518aU, 0xa2523535338f3d78U,
  0xac60832a463e69d0U, 0x7d70c57a5c775667U, 0x85954c8d8482b65cU, 0x45375c5b74461870U,
  0x446c8f86a22aa73fU, 0x9d94343ba93ad3b3U, 0x46397c3792926648U, 0x2f4aac4a143746c1U,
  0x4d716891b4807c4bU, 0x5f8e62366d6da153U, 0x7042b9879c2b8547U, 0x44aa8b74afbd858aU,
  0x27ab6499830b7450U, 0x653c2cbdca4a7273U, 0x9c72612ebf58a546U, 0x4c5c6e692810daaaU,
  0x77406bb544828661U, 0x84676943b22c6290U, 0x76b28f5969657592U, 0x3285606093ea984dU,
  0x3c4a7693bd1f8a07U, 0x3cd9bdf0bd34e572U, 0x3c8b9a3e3c6d9ca5U, 0xbbb5724abc884fecU,
  0x3d9fb553bc94ebf6U, 0xbd853216bc16f723U, 0xbcd4ad8e3cf3c03aU, 0x3d71cfd53db6c5beU,
  0x3c7deeb23c53a7ceU, 0xbd30830a3bd152a4U, 0xbd4ea354bc853753U, 0x3cd3836fbd8b8707U,
  0xbd0633b23cac7c4bU, 0xbd528c1e3ca1de9aU, 0x3c2effd03d391a98U, 0x3d9e01753c264f2dU,
  0x3eaa0003bc3c18fdU, 0x3e1b78e0be4749c9U, 0xbde935cfbcddd349U, 0xbe464bebbe5295ecU,
  0xbe6618e53eb37eefU, 0x3e75f555be95b1d6U, 0x3e0a1a7c3e0bd014U, 0x3eca653cbe6b9921U,
  0xbe36a3e13d4a6f47U, 0x3e176372bd132444U, 0xbd0a55663e78b1e2U, 0xbe8671d8bd21ccd3U,
  0x3d64c93abdeec73bU, 0x3e92a2b6bea6749aU, 0xbe0c11013ed4c7bfU, 0x3eefd6293ea17042U,
  0x3e6d6ca53eb9187cU, 0xbeb90142be4183daU, 0x3e8de93bbdb92a02U, 0xbde766c1bd135aa3U,
  0xbcdc0ca0be5d8c43U, 0xbe4033323e789b3dU, 0x3e0d2ccbbced9836U, 0x3ececd603e365166U,
  0xbe8be175bcabd88cU, 0xbd821de7bd2324b3U, 0x3d0253f53d567259U, 0xbe370243be953d41U,
  0xbe98be4abcc052cbU, 0x3d923705b9cb8a3aU, 0xbe00a5ae3e5ed1d5U, 0xbe2580843d562243U,
  0x3ec1ccb9be2b35ebU, 0x3e8eeb0d3e031a0aU, 0x3ebcc76b3e77b526U, 0xbda9a1833de8aa71U,
  0xbe6d7d533d00fbd6U, 0xbd9a8f17be0256c9U, 0x3ee40531be8e720eU, 0xbd740105bb783c7aU,
  0x3e9f0cfb3ea02805U, 0xbc0d58cdbe72530cU, 0x3e9e2c22bd9b3abaU, 0xbe4a05fdbe924251U,
  0xbda0ddba3e10001cU, 0x3eb24bc7bed7183cU, 0xbe463bc23e92adc9U, 0x3ef8427b3e9da17bU,
  0x3d6128ad3e754aa4U, 0xbec120433e19fc5eU, 0xbe11f48e3e889786U, 0xbd1a57fa3ee3094cU,
  0xbec5eb55be0442c0U, 0x3e454bd03d106460U, 0x3e8289ce3d8ffa09U, 0x3eb19212bea53674U,
  0xbc86a320be9d92fcU, 0xbeb43b523c1e87e8U, 0x3daf59ddbe239fe9U, 0xbced5ffbbeab942cU,
  0xbe5e2bd63e15e404U, 0x3ead485bbe84a47dU, 0xbda0426fbe8a8d64U, 0xbe2bc2e73e6478d7U,
  0xbde7ae153dc751e4U, 0xbe32b75f3d2847daU, 0x3d140ae33e112d5cU, 0x3e86482b3e59a379U,
  0xbed50b14bcaee471U, 0x3e1f7139bd203961U, 0x3e859e66bea40babU, 0xbe077c873db3f4adU,
  0xbe931772be63189eU, 0x3ea6e4a3be25d3a1U, 0xbd9a559cbe2e206fU, 0xbd6d3696be64fa79U,
  0xbe92a880be1f73b0U, 0x3c0c9e013e3db918U, 0xbeb57e71bda6250fU, 0x3e89bd873ea96387U,
  0xbeacab21be03e54bU, 0xbddda7bebe2f353aU, 0xbd9d37503ba788b9U, 0x3eb3c57ebda8c880U,
  0xbdd3f032be8bb1e5U, 0xbe216ec83f042be0U, 0x3d4446353e425e4eU, 0xbeae0ba73ec7ef49U,
  0xbdf3278abe053bd6U, 0xbeb85b6f3e1599b8U, 0xbe859e47bdb0bac4U, 0xbde52ed13e63e99cU,
  0x3ef3539a3cb8485aU, 0x3d5581723e4f504eU, 0x3eab30e4be931420U, 0x3d313ec5bebf3f10U,
  0xbd766a893c8e5b53U, 0x3ddf071b3e09711fU, 0xbdd1fe9bbeac5a49U, 0xbd078aa33b2aa5b9U,
  0xbe8a4bf03e7fe40cU, 0xbd21ab1dbe22661eU, 0x3ee6dd91beaa03f6U, 0x3ea0cae3bd057484U,
  0xbea1522f3ac9473cU, 0xbe798cd8be9cd531U, 0xbe69efaebe0384f4U, 0xbd9d7cad3e4fb71eU,
  0x3d677e86beb716e2U, 0x3d39d94b3dd3c0cfU, 0x3dd3384fbe948b96U, 0x3e8049923bee1fc5U,
  0xbcfbe2b4be39c06eU, 0x3dedc8d6be8cd249U, 0xbe841f2b3e434df3U, 0x3e2a3a973eac102fU,
  0xbe9afb01be2ef8faU, 0xbe0422dbbe9dfff9U, 0xbe14c5873d8885b4U, 0xbe923284be1b0024U,
  0x3eca89573e0170daU, 0x3dd553ffbc5a9baaU, 0x3e228afbbe6a2917U, 0xbe7179a93e46d7f7U,
  0xbea157c9bd7c38ebU, 0x3e31edf0be88e889U, 0xbd8bf51a3ec42735U, 0x3ef1a60bbc1b2e6fU,
  0x3e3e3d5d3dde24f2U, 0x3e895afdbed74967U, 0x3da0bfc33ed8d506U, 0xbe44d18dbe7a52c1U,
  0x3d90b2343d889f63U, 0x3ea92869be392b92U, 0xbe8db281be9d7df4U, 0x3e7d6252bd77b282U,
  0x3e6d441cbe84be01U, 0xbe63b4f2be13c851U, 0x3e1a3fbd3e68c004U, 0xbdbb6c7abda2197eU,
  0x3e4b9cd6bec1c825U, 0xbec733793dd7ef10U, 0x3dd83a3c3d9cfc96U, 0xbdd0557bbde2aa94U,
  0xbecac57abedadef0U, 0x3e514d3dbdeab1caU, 0xbe10dde3bd9d03a5U, 0xbcbdd6e33cce98cdU,
  0x3eabca51beda2ed8U, 0xbda668f7bdb199c4U, 0x3e6d02513e9f2eb0U, 0xbe3ea1673ed0f121U,
  0xbe8dddb03e2f27d5U, 0xbe8bb5d0bdc1ebc9U, 0xbde44fd63e820111U, 0x3ec56e23be40fee2U,
  0x3e8af7ce3cba4327U, 0xbea1085f3e663eaeU, 0x3eb3d682be72bda7U, 0xbe74c26fbe622855U,
  0xbea103873e237b42U, 0x3c5a8d1fbe0896faU, 0xbe6bf375be44c555U, 0xbddfa823bc39970fU,
  0x3eb75266bec26fceU, 0xbe0f5bbe3eaa3fb8U, 0xbe87daa53d59504fU, 0xbdc209043e6e655bU,
  0xbdcb0b2fbe2a7387U, 0x3e0f2ead3e74136fU, 0x3db1cb94bd19a86bU, 0x3d9806dd3eb4e0b9U,
  0x3eba3d6f3e09ee46U, 0xbce9f7843e53657dU, 0x3d9e4b5fbe4c61f0U, 0x3c868bcabe2967b9U,
  0x3c6211dc3e764edeU, 0xbc1b71473b9370eeU, 0xbe9477193c30f50bU, 0xbe04c2a7be987950U,
  0xbdb9d3ecbc537ec2U, 0x3e8eec7bbeab41a8U, 0xbe8b38eabde953ddU, 0xbd379cc23e495df0U,
  0xbd928c22bea92a8fU, 0xbe2909073e4b6992U, 0x3e68188bbe88de22U, 0xbce58c2d3e5c0384U,
  0x3e507386bea9148eU, 0xbe055fc93e749508U, 0x3e1160e93eaaa77bU, 0xbeb1d84fbe6b5bf2U,
  0xbe8c0c42be8e2d7dU, 0xbe3165043e9ec1d6U, 0xbe9580bcbec6310dU, 0x3e79c106be58d9d5U,
  0xbcce0338be114e6cU, 0xbe23a73a3e1a75eeU, 0xbe2e9ec43e3a8255U, 0xbea0ff003eaa5925U,
  0xbdd15382bca214acU, 0xbe61156f3ead6912U, 0x3e7ae6de3d695c75U, 0xbe4af84ebe6852faU,
  0x3e4a8ac53da2d3e5U, 0x3e11438b3e870db5U, 0x3e367ebdbe53c8d8U, 0xbe845432be5397b2U,
  0x3e9bf9ef3e81224eU, 0x3ea24fcabd1470edU, 0x3e27da343ecb40edU, 0xbea16fb33e36ffc0U,
  0xbea1d4513be39f48U, 0xbe8ace6dbeac899eU, 0x3dcaad0fbd9f0f5eU, 0x3dbcbfab3d99aef6U,
  0x3e514ca23c9b29b5U, 0x3e9114743de59a8bU, 0x3e647bed3c61ced7U, 0x3ec1c50a3e24c2c3U,
  0xbe7269c53e1c2f4cU, 0xbdbe13653e48bb0cU, 0x3e9353c33e1d1b5bU, 0x3dfc42f5be7bc84fU,
  0xbdef4b7fbe1f35feU, 0x3e8e32d0bea40515U, 0xbea946dd3e902d90U, 0xbdcfab9a3e8eaf32U,
  0x3e58b5eabce40346U, 0xbe98cade3e7baafdU, 0x3e93d9f6bda53be2U, 0x3e598344be10830eU,
  0x3ddd1571be1404b9U, 0x3e308fedbeabb68eU, 0x3dea1f8fbc3072e0U, 0x3b2bd481be7f6c71U,
  0xbe8f272ebe4abb53U, 0x3db9181d3de6cbb2U, 0x3e8a4aa4be419289U, 0x3e68f7823e78728cU,
  0x3d216a44be2949e9U, 0xbe2f8bd93e70a670U, 0xbe981c27bd63ee89U, 0xbe2c79323e93da85U,
  0x3de7076ebd79bfa1U, 0x3dddbabbbc702b85U, 0xbe1821c5be4bd11dU, 0xbe8536e43e72a68eU,
  0x3de7bc783e3f146bU, 0xbd636303bd839fb7U, 0xbe177b133ed39800U, 0x3ea9b4723eadb473U,
  0x3e923e583e6c7e38U, 0xbd1d8ac33c2196c6U, 0x3e1a3163bbfc07fbU, 0xbe7368f03e703b4aU,
  0xbd9303e23de0b2fcU, 0x3b36559c3db84675U, 0x3de3a2683cc55087U, 0x3d6a56123dbb9ed2U,
  0x3dc8a8d83d10d45dU, 0xbde56ad63dc951c9U, 0x3df2a89e3de5d37cU, 0x3d27ae4ebdc6b13dU,
  0xbdf1a4f9bd05f21aU, 0xbe0d88e0bd9ea948U, 0x3f034cb5beab3b6fU, 0xbd81a0133e03e8c6U,
  0xbdb87c8abea6c1faU, 0x3dc58887bedb96b4U, 0xbd2f7fd6be5f028fU, 0x3d2ae84ebdb36f15U,
  0xbece6ada3e58df6dU, 0xbe19b8b3becbb3f1U, 0xbed956bc3e34d9bdU, 0x3d230608beb3e0e0U,
  0xbee1d021be8c26a7U, 0x3f021900be8e9633U, 0xbe83cf5a3e95a80eU, 0xbe05f1383e83cd73U,
  0xbef8b6d03ee7d8ebU, 0xbe3e4bcebf089929U, 0xbeb3f9d83f1015d5U, 0x3d5643a43f0b377aU,
  0xbc41a0e4bde828cdU, 0xbd03184d3c673fb1U, 0x3e0f5c67bed8abb6U, 0x3ea57449be4028ffU,
  0x3d8b23b83ede3617U, 0x3ddd1736beff538fU, 0xbdf7b972be61eb93U, 0x3cb116d3beeade40U,
  0x3d1f90a7be89758cU, 0x3ea5a8253c4736e7U, 0x3ebfd2e33e41687bU, 0xbeb9b2793e53032fU,
  0xbea8e4a13f141f2bU, 0x3f1a3eec3f1fe89aU, 0xbe7990113dac5247U, 0x3e7fa3243ee1cfacU,
  0x3dec44233edf3d7fU, 0x3c09cb6abd197065U, 0x3efb39f7be74ccbaU, 0x3ed3120fbe83b592U,
  0xbed6b0043d7c7849U, 0xbe09b9473d4dfb58U, 0x3e27fe71bdf02bfeU, 0xbe7072c3bd9884b3U,
  0x3efe89533c219b04U, 0x3d3f96c53ed6736eU, 0x3e3c756f3ed870dcU, 0x3eea47f6bed505b3U,
  0xbe05d4fd3e812788U, 0xbeae2c4abee390a0U, 0x3d63a7773e122ee9U, 0xbe86de043e3b368eU,
  0xbea798313e0c4944U, 0x3de6f9efbd79e21cU, 0xbeb93af8be483f35U, 0x3d8a5336be8a228fU,
  0xbeed4cf6bec8a078U, 0xbec5288dbee51f2aU, 0xbdade32cbed7cfafU, 0xbf1d94cb3e135c14U,
  0x3f10a73c3e86a46dU, 0xbea4b1c03e9d4797U, 0x3ee64e623eb861ceU, 0x3e9f8db23e0131aaU,
  0xbd801a0b3cee28c3U, 0xbb02f0ae3d12e004U, 0x3cf053a33d4eec07U, 0x3e11a0cebcaab137U,
  0xbe21c2b3bf53ffbeU, 0x3e39f3783db47940U, 0xbf5743ef3f22ed93U, 0xbe96fcc63e6d33bdU,
  0x3ca5bcd7U,
};


ai_handle g_dnn_model_weights_table[1 + 2] = {
  AI_HANDLE_PTR(AI_MAGIC_MARKER),
  AI_HANDLE_PTR(s_dnn_model_weights_array_u64),
  AI_HANDLE_PTR(AI_MAGIC_MARKER),
};

